0x0456,0x0789,0x0abc,0x0def,0x0123,0xffab,0x0345,0x0678,0x09ab,0x0cde,
0x0f12,0x0345,0xff78,0x0678,0x09ab,0x0cde,0x0f12,0x0345,0xff78,0x0678,
0x09ab,0x0cde,0x0f12,0x0345,0xff78,0x0678,0x09ab,0x0cde,0x0f12,0x0345,
0xff78,0x0678,0x09ab,0x0cde,0x0f12,0x0345,0xff78,0x0678,0x09ab,0x0cde,
0x0f12,0x0345,0xff78,0x0678,0x09ab,0x0cde,0x0f12,0x0345,0xff78,0x0678,
0x09ab,0x0cde,0x0f12,0x0345,0xff78,0x0678,0x09ab,0x0cde,0x0f12,0x0345,
0xff78,0x0678,0x09ab,0x0cde,0x0f12,0x0345,0xff78,0x0678,0x09ab,0x0cde,
0x0f12,0x0345,0xff78,0x0678,0x09ab,0x0cde,0x0f12,0x0345,0xff78,0x0678,
0x09ab,0x0cde,0x0f12,0x0345,0xff78,0x0678,0x09ab,0x0cde,0x0f12,0x0345,
0xff78,0x0678,0x09ab,0x0cde,0x0f12,0x0345,0xff78,0x0678,0x09ab,0x0cde,
0x0f12,0x0345,0xff78,0x0678,0x09ab,0x0cde,0x0f12,0x0345,0xff78,0x0678,
0x09ab,0x0cde,0x0f12,0x0345,0xff78,0x0678,0x09ab,0x0cde,0x0f12,0x0345,
0xff78,0x0678,0x09ab,0x0cde,0x0f12,0x0345,0xff78,0x0678,0x09ab,0x0cde,
0x0f12,0x0345,0xff78,0x0678,0x09ab,0x0cde,0x0f12,0x0345,0xff78,0x0678,
0x09ab,0x0cde,0x0f12,0x0345,0xff78,0x0678,0x09ab,0x0cde,0x0f12,0x0345,
0xff78,0x0678,0x09ab,0x0cde,0x0f12,0x0345,0xff78,0x0678,0x09ab,0x0cde
