0x0124,0xff89,0x02a1,0xfe12,0x0345,0x0012,0xffb3,0x0199,0x02c7,0xfd45,
0x0188,0x03a2,0xfe91,0x0277,0x0111,0xff34,0x02e5,0x0099,0xfdc1,0x0312,
0x01a3,0xfe67,0x0289,0x00d4,0xff12,0x02f1,0x0177,0xfe89,0x0301,0x00a2,
0x01b5,0xff23,0x0299,0x0188,0xfe45,0x02c3,0x00f1,0x01d2,0xff89,0x0277,
0x01e4,0xfe12,0x02b5,0x0103,0x01f6,0xff67,0x0289,0x0125,0xfe91,0x02a1,
0x0137,0x01a8,0xff34,0x0277,0x0149,0xfe67,0x0299,0x015b,0x01ba,0xff12,
0x0289,0x016d,0xfe89,0x02b5,0x017f,0x01cc,0xff45,0x0277,0x0191,0xfe12,
0x02a1,0x01a3,0xff67,0x0289,0x01b5,0xfe34,0x0299,0x01c7,0x01d9,0xff89,
0x0277,0x01db,0xfe56,0x0299,0x01ed,0x01ef,0xff12,0x0289,0x0201,0xfe78,
0x02b5,0x0213,0x0205,0xff34,0x0277,0x0225,0xfe9a,0x02c3,0x0237,0x0217,
0xff56,0x0289,0x0249,0xfebc,0x02d1,0x025b,0x0229,0xff78,0x0277,0x026d,
0xfede,0x02df,0x027f,0x023b,0xff9a,0x0289,0x0291,0xff00,0x02ed,0x02a3,
0x024d,0xffbc,0x0277,0x02b5,0xff22,0x02fb,0x02c7,0x025f,0xffde,0x0289,
0x02d9,0xff44,0x0309,0x02eb,0x0271,0x0000,0x0277,0x02fd,0xff66,0x0317,
0x030f,0x0283,0x0022,0x0289,0x0321,0xff88,0x0325,0x0333,0x0295,0x0044,
0x0277,0x0345,0xffaa,0x0333,0x0357,0x02a7,0x0066,0x0289,0x0369,0xffcc,
0x0341,0x037b,0x02b9,0x0088,0x0277,0x038d,0xffee,0x034f,0x039f,0x02cb,
0x00aa,0x0289,0x03b1,0x0010,0x035d,0x03c3,0x02dd,0x00cc,0x0277,0x03d5,
0x0032,0x036b,0x03e7,0x02ef,0x00ee,0x0289,0x03f9,0x0054,0x0379,0x040b,
0x0301,0x0110,0x0277,0x041d,0x0076,0x0387,0x042f,0x0313,0x0132,0x0289,
0x0441,0x0098,0x0395,0x0453,0x0325,0x0154,0x0277,0x0465,0x00ba,0x03a3,
0x0477,0x0337,0x0176,0x0289,0x0489,0x00dc,0x03b1,0x049b,0x0349,0x0198,
0x0277,0x04ad,0x00fe,0x03bf,0x04bf,0x035b,0x01ba,0x0289,0x04d1,0x0120,
0x03cd,0x04e3,0x036d,0x01dc,0x0277,0x04f5,0x0142,0x03db,0x0507,0x037f,
0x01fe,0x0289,0x0519,0x0164,0x03e9,0x052b,0x0391,0x0220,0x0277,0x053d,
0x0186,0x03f7,0x054f,0x03a3,0x0242,0x0289,0x0561,0x01a8,0x0405,0x0573,
0x03b5,0x0264,0x0277,0x0585,0x01ca,0x0413,0x0597,0x03c7,0x0286,0x0289,
0x05a9,0x01ec,0x0421,0x05bb,0x03d9,0x02a8,0x0277,0x05cd,0x020e,0x042f,
0x05df,0x03eb,0x02ca,0x0289,0x05f1,0x0230,0x043d,0x0603,0x03fd,0x02ec,
0x0277,0x0615,0x0252,0x044b,0x0627,0x040f,0x030e,0x0289,0x0639,0x0274,
0x0459,0x064b,0x0421,0x0330,0x0277,0x065d,0x0296,0x0467,0x066f,0x0433,
0x0352,0x0289,0x0681,0x02b8,0x0475,0x0693,0x0445,0x0374,0x0277,0x06a5,
0x02da,0x0483,0x06b7,0x0457,0x0396,0x0289,0x06c9,0x02fc,0x0491,0x06db,
0x0469,0x03b8,0x0277,0x06ed,0x031e,0x049f,0x06ff,0x047b,0x03da,0x0289,
