0x0345,0x0abc,0xf345,0x0678,0xffcd,0x09ab,0x0cde,0x0f01,0x1345,0x1678,
0x19ab,0x1cde,0x1f01,0x2345,0x2678,0x29ab,0x2cde,0x2f01,0x3345,0x3678,
0x39ab,0x3cde,0x3f01,0x4345,0x4678,0x49ab,0x4cde,0x4f01,0x5345,0x5678,
0x59ab,0x5cde,0x5f01,0x6345,0x6678,0x69ab,0x6cde,0x6f01,0x7345,0x7678,
0x79ab,0x7cde,0x7f01,0x8345,0x8678,0x89ab,0x8cde,0x8f01,0x9345,0x9678,
0x99ab,0x9cde,0x9f01,0xa345,0xa678,0xa9ab,0xacde,0xaf01,0xb345,0xb678,
0xb9ab,0xbcde,0xbf01,0xc345,0xc678,0xc9ab,0xccde,0xcf01,0xd345,0xd678,
0xd9ab,0xdcde,0xdf01,0xe345,0xe678,0xe9ab,0xecde,0xef01,0xf345,0xf678,
0xf9ab,0xfcde,0xff01,0x0345,0x0678,0x09ab,0x0cde,0x0f01,0x1345,0x1678,
0x19ab,0x1cde,0x1f01,0x2345,0x2678,0x29ab,0x2cde,0x2f01,0x3345,0x3678,
0x39ab,0x3cde,0x3f01,0x4345,0x4678,0x49ab,0x4cde,0x4f01,0x5345,0x5678,
0x59ab,0x5cde,0x5f01,0x6345,0x6678,0x69ab,0x6cde,0x6f01,0x7345,0x7678,
0x79ab,0x7cde,0x7f01,0x8345,0x8678,0x89ab,0x8cde,0x8f01,0x9345,0x9678,
0x99ab,0x9cde,0x9f01,0xa345,0xa678,0xa9ab,0xacde,0xaf01,0xb345,0xb678,
0xb9ab,0xbcde,0xbf01,0xc345,0xc678,0xc9ab,0xccde,0xcf01,0xd345,0xd678,
0xd9ab,0xdcde,0xdf01,0xe345,0xe678,0xe9ab,0xecde,0xef01,0xf345,0xf678,
0xf9ab,0xfcde,0xff01,0x0011,0x0022,0x0033,0x0044,0x0055,0x0066,0x0077,
0x0088,0x0099,0x00aa,0x00bb,0x00cc,0x00dd,0x00ee,0x00ff,0xff11,0xff22,
0xff33,0xff44,0xff55,0xff66,0xff77,0xff88,0xff99,0xffaa,0xffbb,0xffcc,
0xffdd,0xffee,0xffff,0x0111,0x0222,0x0333,0x0444,0x0555,0x0666,0x0777,
0x0888,0x0999,0x0aaa,0x0bbb,0x0ccc,0x0ddd,0x0eee,0x0fff,0xf111,0xf222,
0xf333,0xf444,0xf555,0xf666,0xf777,0xf888,0xf999,0xfaaa,0xfbbb,0xfccc,
0xfddd,0xfeee,0xffff,0x1111,0x1222,0x1333,0x1444,0x1555,0x1666,0x1777,
0x1888,0x1999,0x1aaa,0x1bbb,0x1ccc,0x1ddd,0x1eee,0x1fff,0xe111,0xe222,
0xe333,0xe444,0xe555,0xe666,0xe777,0xe888,0xe999,0xeaaa,0xebbb,0xeccc,
0xedd1,0xedd2,0xedd3,0xedd4,0xedd5,0xedd6,0xedd7,0xedd8,0xedd9,0xedea,
0xedfb,0xedfc,0xedfd,0xedfe,0xedff,0xee00,0xee01,0xee02,0xee03,0xee04,
0xee05,0xee06,0xee07,0xee08,0xee09,0xee0a,0xee0b,0xee0c,0xee0d,0xee0e,
0xee0f,0xee10,0xee11,0xee12,0xee13,0xee14,0xee15,0xee16,0xee17,0xee18,
0xee19,0xee1a,0xee1b,0xee1c,0xee1d,0xee1e,0xee1f,0xee20,0xee21,0xee22,
0xee23,0xee24,0xee25,0xee26,0xee27,0xee28,0xee29,0xee2a,0xee2b,0xee2c,
0xee2d,0xee2e,0xee2f,0xee30,0xee31,0xee32,0xee33,0xee34,0xee35,0xee36,
0xee37,0xee38,0xee39,0xee3a,0xee3b,0xee3c,0xee3d,0xee3e,0xee3f,0xee40,
0xee41,0xee42,0xee43,0xee44,0xee45,0xee46,0xee47,0xee48,0xee49,0xee4a,
0xee4b,0xee4c,0xee4d,0xee4e,0xee4f,0xee50,0xee51,0xee52,0xee53,0xee54,
0xee55,0xee56,0xee57,0xee58,0xee59,0xee5a,0xee5b,0xee5c,0xee5d,0xee5e,
0xee5f,0xee60,0xee61,0xee62,0xee63,0xee64,0xee65,0xee66,0xee67,0xee68,
0xee69,0xee6a,0xee6b,0xee6c,0xee6d,0xee6e,0xee6f,0xee70,0xee71,0xee72,
0xee73,0xee74,0xee75,0xee76,0xee77,0xee78,0xee79,0xee7a,0xee7b,0xee7c,
0xee7d,0xee7e,0xee7f,0xee80,0xee81,0xee82,0xee83,0xee84,0xee85,0xee86,
0xee87,0xee88,0xee89,0xee8a,0xee8b,0xeec8,0xeec9,0xeeca,0xeecb,0xeecc,
0xeecd,0xeece,0xeecf,0xeed0,0xeed1,0xeed2,0xeed3,0xeed4,0xeed5,0xeed6,
0xeed7,0xeed8,0xeed9,0xeeda,0xeedb,0xeedc,0xeedd,0xeede,0xeedf,0xeee0,
0xeee1,0xeee2,0xeee3,0xeee4,0xeee5,0xeee6,0xeee7,0xeee8,0xeee9,0xeeea,
0xeeeb,0xeeec,0xeeed,0xeeee,0xeeef,0xeef0,0xeef1,0xeef2,0xeef3,0xeef4,
0xeef5,0xeef6,0xeef7,0xeef8,0xeef9,0xeefa,0xeefb,0xeefc,0xeefd,0xeefe,
0xeeff,0xef00,0xef01,0xef02,0xef03,0xef04,0xef05,0xef06,0xef07,0xef08,
0xef09,0xef0a,0xef0b,0xef0c,0xef0d,0xef0e,0xef0f,0xef10,0xef11,0xef12
