0x0456,0x0bcd,0xf456,0x0789,0xffde,0x0abc,0x0def,0x0f12,0x1456,0x1789,
0x1abc,0x1def,0x1f12,0x2456,0x2789,0x2abc,0x2def,0x2f12,0x3456,0x3789,
0x3abc,0x3def,0x3f12,0x4456,0x4789,0x4abc,0x4def,0x4f12,0x5456,0x5789,
0x5abc,0x5def,0x5f12,0x6456,0x6789,0x6abc,0x6def,0x6f12,0x7456,0x7789,
0x7abc,0x7def,0x7f12,0x8456,0x8789,0x8abc,0x8def,0x8f12,0x9456,0x9789,
0x9abc,0x9def,0x9f12,0xa456,0xa789,0xaabc,0xadef,0xaf12,0xb456,0xb789,
0xbabc,0xbdef,0xbf12,0xc456,0xc789,0xcabc,0xcdef,0xcf12,0xd456,0xd789,
0xdabc,0xddef,0xdf12,0xe456,0xe789,0xeabc,0xedef,0xef12,0xf456,0xf789,
0xfabc,0xfdef,0xff12,0x0456,0x0789,0x0abc,0x0def,0x0f12,0x1456,0x1789,
0x1abc,0x1def,0x1f12,0x2456,0x2789,0x2abc,0x2def,0x2f12,0x3456,0x3789,
0x3abc,0x3def,0x3f12,0x4456,0x4789,0x4abc,0x4def,0x4f12,0x5456,0x5789,
0x5abc,0x5def,0x5f12,0x6456,0x6789,0x6abc,0x6def,0x6f12,0x7456,0x7789,
0x7abc,0x7def,0x7f12,0x8456,0x8789,0x8abc,0x8def,0x8f12,0x9456,0x9789,
0x9abc,0x9def,0x9f12,0xa456,0xa789,0xaabc,0xadef,0xaf12,0xb456,0xb789,
0xbabc,0xbdef,0xbf12,0xc456,0xc789,0xcabc,0xcdef,0xcf12,0xd456,0xd789,
0xdabc,0xddef,0xdf12,0xe456,0xe789,0xeabc,0xedef,0xef12,0xf456,0xf789,
0xfabc,0xfdef,0xff12,0x0011,0x0022,0x0033,0x0044,0x0055,0x0066,0x0077,
0x0088,0x0099,0x00aa,0x00bb,0x00cc,0x00dd,0x00ee,0x00ff,0xff11,0xff22,
0xff33,0xff44,0xff55,0xff66,0xff77,0xff88,0xff99,0xffaa,0xffbb,0xffcc,
0xffdd,0xffee,0xffff,0x0111,0x0222,0x0333,0x0444,0x0555,0x0666,0x0777,
0x0888,0x0999,0x0aaa,0x0bbb,0x0ccc,0x0ddd,0x0eee,0x0fff,0xf111,0xf222,
0xf333,0xf444,0xf555,0xf666,0xf777,0xf888,0xf999,0xfaaa,0xfbbb,0xfccc,
0xfddd,0xfeee,0xffff,0x1111,0x1222,0x1333,0x1444,0x1555,0x1666,0x1777,
0x1888,0x1999,0x1aaa,0x1bbb,0x1ccc,0x1ddd,0x1eee,0x1fff,0xe111,0xe222,
0xe333,0xe444,0xe555,0xe666,0xe777,0xe888,0xe999,0xeaaa,0xebbb,0xeccc,
0xedd1,0xedd2,0xedd3,0xedd4,0xedd5,0xedd6,0xedd7,0xedd8,0xedd9,0xedea,
0xedfb,0xedfc,0xedfd,0xedfe,0xedff,0xee00,0xee01,0xee02,0xee03,0xee04,
0xee05,0xee06,0xee07,0xee08,0xee09,0xee0a,0xee0b,0xee0c,0xee0d,0xee0e,
0xee0f,0xee10,0xee11,0xee12,0xee13,0xee14,0xee15,0xee16,0xee17,0xee18,
0xee19,0xee1a,0xee1b,0xee1c,0xee1d,0xee1e,0xee1f,0xee20,0xee21,0xee22,
0xee23,0xee24,0xee25,0xee26,0xee27,0xee28,0xee29,0xee2a,0xee2b,0xee2c,
0xee2d,0xee2e,0xee2f,0xee30,0xee31,0xee32,0xee33,0xee34,0xee35,0xee36,
0xee37,0xee38,0xee39,0xee3a,0xee3b,0xee3c,0xee3d,0xee3e,0xee3f,0xee40,
0xee41,0xee42,0xee43,0xee44,0xee45,0xee46,0xee47,0xee48,0xee49,0xee4a,
0xee4b,0xee4c,0xee4d,0xee4e,0xee4f,0xee50,0xee51,0xee52,0xee53,0xee54,
0xee55,0xee56,0xee57,0xee58,0xee59,0xee5a,0xee5b,0xee5c,0xee5d,0xee5e,
0xee5f,0xee60,0xee61,0xee62,0xee63,0xee64,0xee65,0xee66,0xee67,0xee68,
0xee69,0xee6a,0xee6b,0xee6c,0xee6d,0xee6e,0xee6f,0xee70,0xee71,0xee72,
0xee73,0xee74,0xee75,0xee76,0xee77,0xee78,0xee79,0xee7a,0xee7b,0xee7c,
0xee7d,0xee7e,0xee7f,0xee80,0xee81,0xee82,0xee83,0xee84,0xee85,0xee86,
0xee87,0xee88,0xee89,0xee8a,0xee8b,0xee8c,0xee8d,0xee8e,0xee8f,0xee90,
0xee91,0xee92,0xee93,0xee94,0xee95,0xee96,0xee97,0xee98,0xee99,0xee9a,
0xee9b,0xee9c,0xee9d,0xee9e,0xee9f,0xeea0,0xeea1,0xeea2,0xeea3,0xeea4,
0xeea5,0xeea6,0xeea7,0xeea8,0xeea9,0xeeaa,0xeeab,0xeeac,0xeead,0xeeae,
0xeeaf,0xeeb0,0xeeb1,0xeeb2,0xeeb3,0xeeb4,0xeeb5,0xeeb6,0xeeb7,0xeeb8,
0xeeb9,0xeeba,0xeebb,0xeebc,0xeebd,0xeebe,0xeebf,0xeec0,0xeec1,0xeec2,
0xeec3,0xeec4,0xeec5,0xeec6,0xeec7,0xeec8,0xeec9,0xeeca,0xeecb,0xeecc,
0xeecd,0xeece,0xeecf,0xeed0,0xeed1,0xeed2,0xeed3,0xeed4,0xeed5,0xeed6,
0xeed7,0xeed8,0xeed9,0xeeda,0xeedb,0xeedc,0xeedd,0xeede,0xeedf,0xeee0,
0xeee1,0xeee2,0xeee3,0xeee4,0xeee5,0xeee6,0xeee7,0xeee8,0xeee9,0xeeea,
0xeeeb,0xeeec,0xeeed,0xeeee,0xeeef,0xeef0,0xeef1,0xeef2,0xeef3,0xeef4,
0xeef5,0xeef6,0xeef7,0xeef8,0xeef9,0xeefa,0xeefb,0xeefc,0xeefd,0xeefe,
0xeeff,0xef00,0xef01,0xef02,0xef03,0xef04,0xef05,0xef06,0xef07,0xef08,
0xef09,0xef0a,0xef0b,0xef0c,0xef0d,0xef0e,0xef0f,0xef10,0xef11,0xef12
