0x000001,0x000002,0x000003,0x000004,0x000005,0x000006,0x000007,0x000008,0x000009,0x00000a,
0x00000b,0x00000c,0x00000d,0x00000e,0x00000f,0x000010,0x000011,0x000012,0x000013,0x000014,
0x000015,0x000016,0x000017,0x000018,0x000019,0x00001a,0x00001b,0x00001c,0x00001d,0x00001e,
0x00001f,0x000020,0x000021,0x000022,0x000023,0x000024,0x000025,0x000026,0x000027,0x000028,
0x000029,0x00002a,0x00002b,0x00002c,0x00002d,0x00002e,0x00002f,0x000030,0x000031,0x000032,
0x000033,0x000034,0x000035,0x000036,0x000037,0x000038,0x000039,0x00003a,0x00003b,0x00003c,
0x00003d,0x00003e,0x00003f,0x000040,0x000041,0x000042,0x000043,0x000044,0x000045,0x000046,
0x000047,0x000048,0x000049,0x00004a,0x00004b,0x00004c,0x00004d,0x00004e,0x00004f,0x000050,
0x000051,0x000052,0x000053,0x000054,0x000055,0x000056,0x000057,0x000058,0x000059,0x00005a,
0x00005b,0x00005c,0x00005d,0x00005e,0x00005f,0x000060,0x000061,0x000062,0x000063,0x000064,
0x000065,0x000066,0x000067,0x000068,0x000069,0x00006a,0x00006b,0x00006c,0x00006d,0x00006e,
0x00006f,0x000070,0x000071,0x000072,0x000073,0x000074,0x000075,0x000076,0x000077,0x000078,
0x000079,0x00007a,0x00007b,0x00007c,0x00007d,0x00007e,0x00007f,0x000080,0x000081,0x000082,
0x000083,0x000084,0x000085,0x000086,0x000087,0x000088,0x000089,0x00008a,0x00008b,0x00008c,
0x00008d,0x00008e,0x00008f,0x000090,0x000091,0x000092,0x000093,0x000094,0x000095,0x000096,
0x000097,0x000098,0x000099,0x00009a,0x00009b,0x00009c,0x00009d,0x00009e,0x00009f,0x0000a0,
0x0000a1,0x0000a2,0x0000a3,0x0000a4,0x0000a5,0x0000a6,0x0000a7,0x0000a8,0x0000a9,0x0000aa,
0x0000ab,0x0000ac,0x0000ad,0x0000ae,0x0000af,0x0000b0,0x0000b1,0x0000b2,0x0000b3,0x0000b4,
0x0000b5,0x0000b6,0x0000b7,0x0000b8,0x0000b9,0x0000ba,0x0000bb,0x0000bc,0x0000bd,0x0000be,
0x0000bf,0x0000c0,0x0000c1,0x0000c2,0x0000c3,0x0000c4,0x0000c5,0x0000c6,0x0000c7,0x0000c8,
0x0000c9,0x0000ca,0x0000cb,0x0000cc,0x0000cd,0x0000ce,0x0000cf,0x0000d0,0x0000d1,0x0000d2,
0x0000d3,0x0000d4,0x0000d5,0x0000d6,0x0000d7,0x0000d8,0x0000d9,0x0000da,0x0000db,0x0000dc,
0x0000dd,0x0000de,0x0000df,0x0000e0,0x0000e1,0x0000e2,0x0000e3,0x0000e4,0x0000e5,0x0000e6,
0x0000e7,0x0000e8,0x0000e9,0x0000ea,0x0000eb,0x0000ec,0x0000ed,0x0000ee,0x0000ef,0x0000f0,
0x0000f1,0x0000f2,0x0000f3,0x0000f4,0x0000f5,0x0000f6,0x0000f7,0x0000f8,0x0000f9,0x0000fa,
0x0000fb,0x0000fc,0x0000fd,0x0000fe,0x0000ff,0x000100,0x000101,0x000102,0x000103,0x000104,
0x000105,0x000106,0x000107,0x000108,0x000109,0x00010a,0x00010b,0x00010c,0x00010d,0x00010e,
0x00010f,0x000110,0x000111,0x000112,0x000113,0x000114,0x000115,0x000116,0x000117,0x000118,
0x000119,0x00011a,0x00011b,0x00011c,0x00011d,0x00011e,0x00011f,0x000120,0x000121,0x000122,
0x000123,0x000124,0x000125,0x000126,0x000127,0x000128,0x000129,0x00012a,0x00012b,0x00012c,
0x00012d,0x00012e,0x00012f,0x000130,0x000131,0x000132,0x000133,0x000134,0x000135,0x000136,
0x000137,0x000138,0x000139,0x00013a,0x00013b,0x00013c,0x00013d,0x00013e,0x00013f,0x000140,
0x000141,0x000142,0x000143,0x000144,0x000145,0x000146,0x000147,0x000148,0x000149,0x00014a,
0x00014b,0x00014c,0x00014d,0x00014e,0x00014f,0x000150,0x000151,0x000152,0x000153,0x000154,
0x000155,0x000156,0x000157,0x000158,0x000159,0x00015a,0x00015b,0x00015c,0x00015d,0x00015e,
0x00015f,0x000160,0x000161,0x000162,0x000163,0x000164,0x000165,0x000166,0x000167,0x000168,
0x000169,0x00016a,0x00016b,0x00016c,0x00016d,0x00016e,0x00016f,0x000170,0x000171,0x000172,
0x000173,0x000174,0x000175,0x000176,0x000177,0x000178,0x000179,0x00017a,0x00017b,0x00017c,
0x00017d,0x00017e,0x00017f,0x000180,0x000181,0x000182,0x000183,0x000184,0x000185,0x000186,
0x000187,0x000188,0x000189,0x00018a,0x00018b,0x00018c,0x00018d,0x00018e,0x00018f,0x000190,
0x000191,0x000192,0x000193,0x000194,0x000195,0x000196,0x000197,0x000198,0x000199,0x00019a,
0x00019b,0x00019c,0x00019d,0x00019e,0x00019f,0x0001a0,0x0001a1,0x0001a2,0x0001a3,0x0001a4,
0x0001a5,0x0001a6,0x0001a7,0x0001a8,0x0001a9,0x0001aa,0x0001ab,0x0001ac,0x0001ad,0x0001ae,
0x0001af,0x0001b0,0x0001b1,0x0001b2,0x0001b3,0x0001b4,0x0001b5,0x0001b6,0x0001b7,0x0001b8,
0x0001b9,0x0001ba,0x0001bb,0x0001bc,0x0001bd,0x0001be,0x0001bf,0x0001c0,0x0001c1,0x0001c2,
0x0001c3,0x0001c4,0x0001c5,0x0001c6,0x0001c7,0x0001c8,0x0001c9,0x0001ca,0x0001cb,0x0001cc,
0x0001cd,0x0001ce,0x0001cf,0x0001d0,0x0001d1,0x0001d2,0x0001d3,0x0001d4,0x0001d5,0x0001d6,
0x0001d7,0x0001d8,0x0001d9,0x0001da,0x0001db,0x0001dc,0x0001dd,0x0001de,0x0001df,0x0001e0,
0x0001e1,0x0001e2,0x0001e3,0x0001e4,0x0001e5,0x0001e6,0x0001e7,0x0001e8,0x0001e9,0x0001ea,
0x0001eb,0x0001ec,0x0001ed,0x0001ee,0x0001ef,0x0001f0,0x0001f1,0x0001f2,0x0001f3,0x0001f4,
0x0001f5,0x0001f6,0x0001f7,0x0001f8,0x0001f9,0x0001fa,0x0001fb,0x0001fc,0x0001fd,0x0001fe,
0x0001ff,0x000200,0x000201,0x000202,0x000203,0x000204,0x000205,0x000206,0x000207,0x000208,
0x000209,0x00020a,0x00020b,0x00020c,0x00020d,0x00020e,0x00020f,0x000210,0x000211,0x000212,
0x000213,0x000214,0x000215,0x000216,0x000217,0x000218,0x000219,0x00021a,0x00021b,0x00021c,
0x00021d,0x00021e,0x00021f,0x000220,0x000221,0x000222,0x000223,0x000224,0x000225,0x000226,
0x000227,0x000228,0x000229,0x00022a,0x00022b,0x00022c,0x00022d,0x00022e,0x00022f,0x000230,
0x000231,0x000232,0x000233,0x000234,0x000235,0x000236,0x000237,0x000238,0x000239,0x00023a,
0x00023b,0x00023c,0x00023d,0x00023e,0x00023f,0x000240,0x000241,0x000242,0x000243,0x000244,
0x000245,0x000246,0x000247,0x000248,0x000249,0x00024a,0x00024b,0x00024c,0x00024d,0x00024e,
0x00024f,0x000250,0x000251,0x000252,0x000253,0x000254,0x000255,0x000256,0x000257,0x000258,
0x000259,0x00025a,0x00025b,0x00025c,0x00025d,0x00025e,0x00025f,0x000260,0x000261,0x000262,
0x000263,0x000264,0x000265,0x000266,0x000267,0x000268,0x000269,0x00026a,0x00026b,0x00026c,
0x00026d,0x00026e,0x00026f,0x000270,0x000271,0x000272,0x000273,0x000274,0x000275,0x000276,
0x000277,0x000278,0x000279,0x00027a,0x00027b,0x00027c,0x00027d,0x00027e,0x00027f,0x000280,
0x000281,0x000282,0x000283,0x000284,0x000285,0x000286,0x000287,0x000288,0x000289,0x00028a,
0x00028b,0x00028c,0x00028d,0x00028e,0x00028f,0x000290,0x000291,0x000292,0x000293,0x000294,
0x000295,0x000296,0x000297,0x000298,0x000299,0x00029a,0x00029b,0x00029c,0x00029d,0x00029e,
0x00029f,0x0002a0,0x0002a1,0x0002a2,0x0002a3,0x0002a4,0x0002a5,0x0002a6,0x0002a7,0x0002a8,
0x0002a9,0x0002aa,0x0002ab,0x0002ac,0x0002ad,0x0002ae,0x0002af,0x0002b0,0x0002b1,0x0002b2,
0x0002b3,0x0002b4,0x0002b5,0x0002b6,0x0002b7,0x0002b8,0x0002b9,0x0002ba,0x0002bb,0x0002bc,
0x0002bd,0x0002be,0x0002bf,0x0002c0,0x0002c1,0x0002c2,0x0002c3,0x0002c4,0x0002c5,0x0002c6,
0x0002c7,0x0002c8,0x0002c9,0x0002ca,0x0002cb,0x0002cc,0x0002cd,0x0002ce,0x0002cf,0x0002d0,
0x0002d1,0x0002d2,0x0002d3,0x0002d4,0x0002d5,0x0002d6,0x0002d7,0x0002d8,0x0002d9,0x0002da,
0x0002db,0x0002dc,0x0002dd,0x0002de,0x0002df,0x0002e0,0x0002e1,0x0002e2,0x0002e3,0x0002e4,
0x0002e5,0x0002e6,0x0002e7,0x0002e8,0x0002e9,0x0002ea,0x0002eb,0x0002ec,0x0002ed,0x0002ee,
0x0002ef,0x0002f0,0x0002f1,0x0002f2,0x0002f3,0x0002f4,0x0002f5,0x0002f6,0x0002f7,0x0002f8,
0x0002f9,0x0002fa,0x0002fb,0x0002fc,0x0002fd,0x0002fe,0x0002ff,0x000300,0x000301,0x000302,
0x000303,0x000304,0x000305,0x000306,0x000307,0x000308,0x000309,0x00030a,0x00030b,0x00030c,
0x00030d,0x00030e,0x00030f,0x000310,0x000311,0x000312,0x000313,0x000314,0x000315,0x000316,
0x000317,0x000318,0x000319,0x00031a,0x00031b,0x00031c,0x00031d,0x00031e,0x00031f,0x000320,
0x000321,0x000322,0x000323,0x000324,0x000325,0x000326,0x000327,0x000328,0x000329,0x00032a,
0x00032b,0x00032c,0x00032d,0x00032e,0x00032f,0x000330,0x000331,0x000332,0x000333,0x000334,
0x000335,0x000336,0x000337,0x000338,0x000339,0x00033a,0x00033b,0x00033c,0x00033d,0x00033e,
0x00033f,0x000340,0x000341,0x000342,0x000343,0x000344,0x000345,0x000346,0x000347,0x000348,
0x000349,0x00034a,0x00034b,0x00034c,0x00034d,0x00034e,0x00034f,0x000350,0x000351,0x000352,
0x000353,0x000354,0x000355,0x000356,0x000357,0x000358,0x000359,0x00035a,0x00035b,0x00035c,
0x00035d,0x00035e,0x00035f,0x000360,0x000361,0x000362,0x000363,0x000364,0x000365,0x000366,
0x000367,0x000368,0x000369,0x00036a,0x00036b,0x00036c,0x00036d,0x00036e,0x00036f,0x000370,
0x000371,0x000372,0x000373,0x000374,0x000375,0x000376,0x000377,0x000378,0x000379,0x00037a,
0x00037b,0x00037c,0x00037d,0x00037e,0x00037f,0x000380,0x000381,0x000382,0x000383,0x000384,
0x000385,0x000386,0x000387,0x000388,0x000389,0x00038a,0x00038b,0x00038c,0x00038d,0x00038e,
0x00038f,0x000390,0x000391,0x000392,0x000393,0x000394,0x000395,0x000396,0x000397,0x000398,
0x000399,0x00039a,0x00039b,0x00039c,0x00039d,0x00039e,0x00039f,0x0003a0,0x0003a1,0x0003a2,
0x0003a3,0x0003a4,0x0003a5,0x0003a6,0x0003a7,0x0003a8,0x0003a9,0x0003aa,0x0003ab,0x0003ac,
0x0003ad,0x0003ae,0x0003af,0x0003b0,0x0003b1,0x0003b2,0x0003b3,0x0003b4,0x0003b5,0x0003b6,
0x0003b7,0x0003b8,0x0003b9,0x0003ba,0x0003bb,0x0003bc,0x0003bd,0x0003be,0x0003bf,0x0003c0,
0x0003c1,0x0003c2,0x0003c3,0x0003c4,0x0003c5,0x0003c6,0x0003c7,0x0003c8,0x0003c9,0x0003ca,
0x0003cb,0x0003cc,0x0003cd,0x0003ce,0x0003cf,0x0003d0,0x0003d1,0x0003d2,0x0003d3,0x0003d4,
0x0003d5,0x0003d6,0x0003d7,0x0003d8,0x0003d9,0x0003da,0x0003db,0x0003dc,0x0003dd,0x0003de,
0x0003df,0x0003e0,0x0003e1,0x0003e2,0x0003e3,0x0003e4,0x0003e5,0x0003e6,0x0003e7,0x0003e8,
0x0003e9,0x0003ea,0x0003eb,0x0003ec,0x0003ed,0x0003ee,0x0003ef,0x0003f0,0x0003f1,0x0003f2,
0x0003f3,0x0003f4,0x0003f5,0x0003f6,0x0003f7,0x0003f8,0x0003f9,0x0003fa,0x0003fb,0x0003fc,
0x0003fd,0x0003fe,0x0003ff,0x000400,0x000401,0x000402,0x000403,0x000404,0x000405,0x000406,
0x000407,0x000408,0x000409,0x00040a,0x00040b,0x00040c,0x00040d,0x00040e,0x00040f,0x000410,
0x000411,0x000412,0x000413,0x000414,0x000415,0x000416,0x000417,0x000418,0x000419,0x00041a,
0x00041b,0x00041c,0x00041d,0x00041e,0x00041f,0x000420,0x000421,0x000422,0x000423,0x000424,
0x000425,0x000426,0x000427,0x000428,0x000429,0x00042a,0x00042b,0x00042c,0x00042d,0x00042e,
0x00042f,0x000430,0x000431,0x000432,0x000433,0x000434,0x000435,0x000436,0x000437,0x000438,
0x000439,0x00043a,0x00043b,0x00043c,0x00043d,0x00043e,0x00043f,0x000440,0x000441,0x000442,
0x000443,0x000444,0x000445,0x000446,0x000447,0x000448,0x000449,0x00044a,0x00044b,0x00044c,
0x00044d,0x00044e,0x00044f,0x000450,0x000451,0x000452,0x000453,0x000454,0x000455,0x000456,
0x000457,0x000458,0x000459,0x00045a,0x00045b,0x00045c,0x00045d,0x00045e,0x00045f,0x000460,
0x000461,0x000462,0x000463,0x000464,0x000465,0x000466,0x000467,0x000468,0x000469,0x00046a,
0x00046b,0x00046c,0x00046d,0x00046e,0x00046f,0x000470,0x000471,0x000472,0x000473,0x000474,
0x000475,0x000476,0x000477,0x000478,0x000479,0x00047a,0x00047b,0x00047c,0x00047d,0x00047e,
0x00047f,0x000480,0x000481,0x000482,0x000483,0x000484,0x000485,0x000486,0x000487,0x000488,
0x000489,0x00048a,0x00048b,0x00048c,0x00048d,0x00048e,0x00048f,0x000490,0x000491,0x000492,
0x000493,0x000494,0x000495,0x000496,0x000497,0x000498,0x000499,0x00049a,0x00049b,0x00049c,
0x00049d,0x00049e,0x00049f,0x0004a0,0x0004a1,0x0004a2,0x0004a3,0x0004a4,0x0004a5,0x0004a6,
0x0004a7,0x0004a8,0x0004a9,0x0004aa,0x0004ab,0x0004ac,0x0004ad,0x0004ae,0x0004af,0x0004b0,
0x0004b1,0x0004b2,0x0004b3,0x0004b4,0x0004b5,0x0004b6,0x0004b7,0x0004b8,0x0004b9,0x0004ba,
0x0004bb,0x0004bc,0x0004bd,0x0004be,0x0004bf,0x0004c0,0x0004c1,0x0004c2,0x0004c3,0x0004c4,
0x0004c5,0x0004c6,0x0004c7,0x0004c8,0x0004c9,0x0004ca,0x0004cb,0x0004cc,0x0004cd,0x0004ce,
0x0004cf,0x0004d0,0x0004d1,0x0004d2,0x0004d3,0x0004d4,0x0004d5,0x0004d6,0x0004d7,0x0004d8,
0x0004d9,0x0004da,0x0004db,0x0004dc,0x0004dd,0x0004de,0x0004df,0x0004e0,0x0004e1,0x0004e2,
0x0004e3,0x0004e4,0x0004e5,0x0004e6,0x0004e7,0x0004e8,0x0004e9,0x0004ea,0x0004eb,0x0004ec,
0x0004ed,0x0004ee,0x0004ef,0x0004f0,0x0004f1,0x0004f2,0x0004f3,0x0004f4,0x0004f5,0x0004f6,
0x0004f7,0x0004f8,0x0004f9,0x0004fa,0x0004fb,0x0004fc,0x0004fd,0x0004fe,0x0004ff,0x000500,
0x000501,0x000502,0x000503,0x000504,0x000505,0x000506,0x000507,0x000508,0x000509,0x00050a,
0x00050b,0x00050c,0x00050d,0x00050e,0x00050f,0x000510,0x000511,0x000512,0x000513,0x000514,
0x000515,0x000516,0x000517,0x000518,0x000519,0x00051a,0x00051b,0x00051c,0x00051d,0x00051e,
0x00051f,0x000520,0x000521,0x000522,0x000523,0x000524,0x000525,0x000526,0x000527,0x000528,
0x000529,0x00052a,0x00052b,0x00052c,0x00052d,0x00052e,0x00052f,0x000530,0x000531,0x000532,
0x000533,0x000534,0x000535,0x000536,0x000537,0x000538,0x000539,0x00053a,0x00053b,0x00053c,
0x00053d,0x00053e,0x00053f,0x000540,0x000541,0x000542,0x000543,0x000544,0x000545,0x000546,
0x000547,0x000548,0x000549,0x00054a,0x00054b,0x00054c,0x00054d,0x00054e,0x00054f,0x000550,
0x000551,0x000552,0x000553,0x000554,0x000555,0x000556,0x000557,0x000558,0x000559,0x00055a,
0x00055b,0x00055c,0x00055d,0x00055e,0x00055f,0x000560,0x000561,0x000562,0x000563,0x000564,
0x000565,0x000566,0x000567,0x000568,0x000569,0x00056a,0x00056b,0x00056c,0x00056d,0x00056e,
0x00056f,0x000570,0x000571,0x000572,0x000573,0x000574,0x000575,0x000576,0x000577,0x000578,
0x000579,0x00057a,0x00057b,0x00057c,0x00057d,0x00057e,0x00057f,0x000580,0x000581,0x000582,
0x000583,0x000584,0x000585,0x000586,0x000587,0x000588,0x000589,0x00058a,0x00058b,0x00058c,
0x00058d,0x00058e,0x00058f,0x000590,0x000591,0x000592,0x000593,0x000594,0x000595,0x000596,
0x000597,0x000598,0x000599,0x00059a,0x00059b,0x00059c,0x00059d,0x00059e,0x00059f,0x0005a0,
0x0005a1,0x0005a2,0x0005a3,0x0005a4,0x0005a5,0x0005a6,0x0005a7,0x0005a8,0x0005a9,0x0005aa,
0x0005ab,0x0005ac,0x0005ad,0x0005ae,0x0005af,0x0005b0,0x0005b1,0x0005b2,0x0005b3,0x0005b4,
0x0005b5,0x0005b6,0x0005b7,0x0005b8,0x0005b9,0x0005ba,0x0005bb,0x0005bc,0x0005bd,0x0005be,
0x0005bf,0x0005c0,0x0005c1,0x0005c2,0x0005c3,0x0005c4,0x0005c5,0x0005c6,0x0005c7,0x0005c8,
0x0005c9,0x0005ca,0x0005cb,0x0005cc,0x0005cd,0x0005ce,0x0005cf,0x0005d0,0x0005d1,0x0005d2,
0x0005d3,0x0005d4,0x0005d5,0x0005d6,0x0005d7,0x0005d8,0x0005d9,0x0005da,0x0005db,0x0005dc,
0x0005dd,0x0005de,0x0005df,0x0005e0,0x0005e1,0x0005e2,0x0005e3,0x0005e4,0x0005e5,0x0005e6,
0x0005e7,0x0005e8,0x0005e9,0x0005ea,0x0005eb,0x0005ec,0x0005ed,0x0005ee,0x0005ef,0x0005f0,
0x0005f1,0x0005f2,0x0005f3,0x0005f4,0x0005f5,0x0005f6,0x0005f7,0x0005f8,0x0005f9,0x0005fa,
0x0005fb,0x0005fc,0x0005fd,0x0005fe,0x0005ff,0x000600,0x000601,0x000602,0x000603,0x000604,
0x000605,0x000606,0x000607,0x000608,0x000609,0x00060a,0x00060b,0x00060c,0x00060d,0x00060e,
0x00060f,0x000610,0x000611,0x000612,0x000613,0x000614,0x000615,0x000616,0x000617,0x000618,
0x000619,0x00061a,0x00061b,0x00061c,0x00061d,0x00061e,0x00061f,0x000620,0x000621,0x000622,
0x000623,0x000624,0x000625,0x000626,0x000627,0x000628,0x000629,0x00062a,0x00062b,0x00062c,
0x00062d,0x00062e,0x00062f,0x000630,0x000631,0x000632,0x000633,0x000634,0x000635,0x000636,
0x000637,0x000638,0x000639,0x00063a,0x00063b,0x00063c,0x00063d,0x00063e,0x00063f,0x000640,
0x000641,0x000642,0x000643,0x000644,0x000645,0x000646,0x000647,0x000648,0x000649,0x00064a,
0x00064b,0x00064c,0x00064d,0x00064e,0x00064f,0x000650,0x000651,0x000652,0x000653,0x000654,
0x000655,0x000656,0x000657,0x000658,0x000659,0x00065a,0x00065b,0x00065c,0x00065d,0x00065e,
0x00065f,0x000660,0x000661,0x000662,0x000663,0x000664,0x000665,0x000666,0x000667,0x000668,
0x000669,0x00066a,0x00066b,0x00066c,0x00066d,0x00066e,0x00066f,0x000670,0x000671,0x000672,
0x000673,0x000674,0x000675,0x000676,0x000677,0x000678,0x000679,0x00067a,0x00067b,0x00067c,
0x00067d,0x00067e,0x00067f,0x000680,0x000681,0x000682,0x000683,0x000684,0x000685,0x000686,
0x000687,0x000688,0x000689,0x00068a,0x00068b,0x00068c,0x00068d,0x00068e,0x00068f,0x000690,
0x000691,0x000692,0x000693,0x000694,0x000695,0x000696,0x000697,0x000698,0x000699,0x00069a,
0x00069b,0x00069c,0x00069d,0x00069e,0x00069f,0x0006a0,0x0006a1,0x0006a2,0x0006a3,0x0006a4,
0x0006a5,0x0006a6,0x0006a7,0x0006a8,0x0006a9,0x0006aa,0x0006ab,0x0006ac,0x0006ad,0x0006ae,
0x0006af,0x0006b0,0x0006b1,0x0006b2,0x0006b3,0x0006b4,0x0006b5,0x0006b6,0x0006b7,0x0006b8,
0x0006b9,0x0006ba,0x0006bb,0x0006bc,0x0006bd,0x0006be,0x0006bf,0x0006c0,0x0006c1,0x0006c2,
0x0006c3,0x0006c4,0x0006c5,0x0006c6,0x0006c7,0x0006c8,0x0006c9,0x0006ca,0x0006cb,0x0006cc,
0x0006cd,0x0006ce,0x0006cf,0x0006d0,0x0006d1,0x0006d2,0x0006d3,0x0006d4,0x0006d5,0x0006d6,
0x0006d7,0x0006d8,0x0006d9,0x0006da,0x0006db,0x0006dc,0x0006dd,0x0006de,0x0006df,0x0006e0,
0x0006e1,0x0006e2,0x0006e3,0x0006e4,0x0006e5,0x0006e6,0x0006e7,0x0006e8,0x0006e9,0x0006ea,
0x0006eb,0x0006ec,0x0006ed,0x0006ee,0x0006ef,0x0006f0,0x0006f1,0x0006f2,0x0006f3,0x0006f4,
0x0006f5,0x0006f6,0x0006f7,0x0006f8,0x0006f9,0x0006fa,0x0006fb,0x0006fc,0x0006fd,0x0006fe,
0x0006ff,0x000700,0x000701,0x000702,0x000703,0x000704,0x000705,0x000706,0x000707,0x000708,
0x000709,0x00070a,0x00070b,0x00070c,0x00070d,0x00070e,0x00070f,0x000710,0x000711,0x000712,
0x000713,0x000714,0x000715,0x000716,0x000717,0x000718,0x000719,0x00071a,0x00071b,0x00071c,
0x00071d,0x00071e,0x00071f,0x000720,0x000721,0x000722,0x000723,0x000724,0x000725,0x000726,
0x000727,0x000728,0x000729,0x00072a,0x00072b,0x00072c,0x00072d,0x00072e,0x00072f,0x000730,
0x000731,0x000732,0x000733,0x000734,0x000735,0x000736,0x000737,0x000738,0x000739,0x00073a,
0x00073b,0x00073c,0x00073d,0x00073e,0x00073f,0x000740,0x000741,0x000742,0x000743,0x000744,
0x000745,0x000746,0x000747,0x000748,0x000749,0x00074a,0x00074b,0x00074c,0x00074d,0x00074e,
0x00074f,0x000750,0x000751,0x000752,0x000753,0x000754,0x000755,0x000756,0x000757,0x000758,
0x000759,0x00075a,0x00075b,0x00075c,0x00075d,0x00075e,0x00075f,0x000760,0x000761,0x000762,
0x000763,0x000764,0x000765,0x000766,0x000767,0x000768,0x000769,0x00076a,0x00076b,0x00076c,
0x00076d,0x00076e,0x00076f,0x000770,0x000771,0x000772,0x000773,0x000774,0x000775,0x000776,
0x000777,0x000778,0x000779,0x00077a,0x00077b,0x00077c,0x00077d,0x00077e,0x00077f,0x000780,
0x000781,0x000782,0x000783,0x000784,0x000785,0x000786,0x000787,0x000788,0x000789,0x00078a,
0x00078b,0x00078c,0x00078d,0x00078e,0x00078f,0x000790,0x000791,0x000792,0x000793,0x000794,
0x000795,0x000796,0x000797,0x000798,0x000799,0x00079a,0x00079b,0x00079c,0x00079d,0x00079e,
0x00079f,0x0007a0,0x0007a1,0x0007a2,0x0007a3,0x0007a4,0x0007a5,0x0007a6,0x0007a7,0x0007a8,
0x0007a9,0x0007aa,0x0007ab,0x0007ac,0x0007ad,0x0007ae,0x0007af,0x0007b0,0x0007b1,0x0007b2,
0x0007b3,0x0007b4,0x0007b5,0x0007b6,0x0007b7,0x0007b8,0x0007b9,0x0007ba,0x0007bb,0x0007bc,
0x0007bd,0x0007be,0x0007bf,0x0007c0,0x0007c1,0x0007c2,0x0007c3,0x0007c4,0x0007c5,0x0007c6,
0x0007c7,0x0007c8,0x0007c9,0x0007ca,0x0007cb,0x0007cc,0x0007cd,0x0007ce,0x0007cf,0x0007d0,
0x0007d1,0x0007d2,0x0007d3,0x0007d4,0x0007d5,0x0007d6,0x0007d7,0x0007d8,0x0007d9,0x0007da,
0x0007db,0x0007dc,0x0007dd,0x0007de,0x0007df,0x0007e0,0x0007e1,0x0007e2,0x0007e3,0x0007e4,
0x0007e5,0x0007e6,0x0007e7,0x0007e8,0x0007e9,0x0007ea,0x0007eb,0x0007ec,0x0007ed,0x0007ee,
0x0007ef,0x0007f0,0x0007f1,0x0007f2,0x0007f3,0x0007f4,0x0007f5,0x0007f6,0x0007f7,0x0007f8,
0x0007f9,0x0007fa,0x0007fb,0x0007fc,0x0007fd,0x0007fe,0x0007ff,0x000800,0x000801,0x000802,
0x000803,0x000804,0x000805,0x000806,0x000807,0x000808,0x000809,0x00080a,0x00080b,0x00080c,
0x00080d,0x00080e,0x00080f,0x000810,0x000811,0x000812,0x000813,0x000814,0x000815,0x000816,
0x000817,0x000818,0x000819,0x00081a,0x00081b,0x00081c,0x00081d,0x00081e,0x00081f,0x000820,
0x000821,0x000822,0x000823,0x000824,0x000825,0x000826,0x000827,0x000828,0x000829,0x00082a,
0x00082b,0x00082c,0x00082d,0x00082e,0x00082f,0x000830,0x000831,0x000832,0x000833,0x000834,
0x000835,0x000836,0x000837,0x000838,0x000839,0x00083a,0x00083b,0x00083c,0x00083d,0x00083e,
0x00083f,0x000840,0x000841,0x000842,0x000843,0x000844,0x000845,0x000846,0x000847,0x000848,
0x000849,0x00084a,0x00084b,0x00084c,0x00084d,0x00084e,0x00084f,0x000850,0x000851,0x000852,
0x000853,0x000854,0x000855,0x000856,0x000857,0x000858,0x000859,0x00085a,0x00085b,0x00085c,
0x00085d,0x00085e,0x00085f,0x000860,0x000861,0x000862,0x000863,0x000864,0x000865,0x000866,
0x000867,0x000868,0x000869,0x00086a,0x00086b,0x00086c,0x00086d,0x00086e,0x00086f,0x000870,
0x000871,0x000872,0x000873,0x000874,0x000875,0x000876,0x000877,0x000878,0x000879,0x00087a,
0x00087b,0x00087c,0x00087d,0x00087e,0x00087f,0x000880,0x000881,0x000882,0x000883,0x000884,
0x000885,0x000886,0x000887,0x000888,0x000889,0x00088a,0x00088b,0x00088c,0x00088d,0x00088e,
0x00088f,0x000890,0x000891,0x000892,0x000893,0x000894,0x000895,0x000896,0x000897,0x000898,
0x000899,0x00089a,0x00089b,0x00089c,0x00089d,0x00089e,0x00089f,0x0008a0,0x0008a1,0x0008a2,
0x0008a3,0x0008a4,0x0008a5,0x0008a6,0x0008a7,0x0008a8,0x0008a9,0x0008aa,0x0008ab,0x0008ac,
0x0008ad,0x0008ae,0x0008af,0x0008b0,0x0008b1,0x0008b2,0x0008b3,0x0008b4,0x0008b5,0x0008b6,
0x0008b7,0x0008b8,0x0008b9,0x0008ba,0x0008bb,0x0008bc,0x0008bd,0x0008be,0x0008bf,0x0008c0,
0x0008c1,0x0008c2,0x0008c3,0x0008c4,0x0008c5,0x0008c6,0x0008c7,0x0008c8,0x0008c9,0x0008ca,
0x0008cb,0x0008cc,0x0008cd,0x0008ce,0x0008cf,0x0008d0,0x0008d1,0x0008d2,0x0008d3,0x0008d4,
0x0008d5,0x0008d6,0x0008d7,0x0008d8,0x0008d9,0x0008da,0x0008db,0x0008dc,0x0008dd,0x0008de,
0x0008df,0x0008e0,0x0008e1,0x0008e2,0x0008e3,0x0008e4,0x0008e5,0x0008e6,0x0008e7,0x0008e8,
0x0008e9,0x0008ea,0x0008eb,0x0008ec,0x0008ed,0x0008ee,0x0008ef,0x0008f0,0x0008f1,0x0008f2,
0x0008f3,0x0008f4,0x0008f5,0x0008f6,0x0008f7,0x0008f8,0x0008f9,0x0008fa,0x0008fb,0x0008fc,
0x0008fd,0x0008fe,0x0008ff,0x000900,0x000901,0x000902,0x000903,0x000904,0x000905,0x000906,
0x000907,0x000908,0x000909,0x00090a,0x00090b,0x00090c,0x00090d,0x00090e,0x00090f,0x000910,
0x000911,0x000912,0x000913,0x000914,0x000915,0x000916,0x000917,0x000918,0x000919,0x00091a,
0x00091b,0x00091c,0x00091d,0x00091e,0x00091f,0x000920,0x000921,0x000922,0x000923,0x000924,
0x000925,0x000926,0x000927,0x000928,0x000929,0x00092a,0x00092b,0x00092c,0x00092d,0x00092e,
0x00092f,0x000930,0x000931,0x000932,0x000933,0x000934,0x000935,0x000936,0x000937,0x000938,
0x000939,0x00093a,0x00093b,0x00093c,0x00093d,0x00093e,0x00093f,0x000940,0x000941,0x000942,
0x000943,0x000944,0x000945,0x000946,0x000947,0x000948,0x000949,0x00094a,0x00094b,0x00094c,
0x00094d,0x00094e,0x00094f,0x000950,0x000951,0x000952,0x000953,0x000954,0x000955,0x000956,
0x000957,0x000958,0x000959,0x00095a,0x00095b,0x00095c,0x00095d,0x00095e,0x00095f,0x000960,
0x000961,0x000962,0x000963,0x000964,0x000965,0x000966,0x000967,0x000968,0x000969,0x00096a,
0x00096b,0x00096c,0x00096d,0x00096e,0x00096f,0x000970,0x000971,0x000972,0x000973,0x000974,
0x000975,0x000976,0x000977,0x000978,0x000979,0x00097a,0x00097b,0x00097c,0x00097d,0x00097e,
0x00097f,0x000980,0x000981,0x000982,0x000983,0x000984,0x000985,0x000986,0x000987,0x000988,
0x000989,0x00098a,0x00098b,0x00098c,0x00098d,0x00098e,0x00098f,0x000990,0x000991,0x000992,
0x000993,0x000994,0x000995,0x000996,0x000997,0x000998,0x000999,0x00099a,0x00099b,0x00099c,
0x00099d,0x00099e,0x00099f,0x0009a0,0x0009a1,0x0009a2,0x0009a3,0x0009a4,0x0009a5,0x0009a6,
0x0009a7,0x0009a8,0x0009a9,0x0009aa,0x0009ab,0x0009ac,0x0009ad,0x0009ae,0x0009af,0x0009b0,
0x0009b1,0x0009b2,0x0009b3,0x0009b4,0x0009b5,0x0009b6,0x0009b7,0x0009b8,0x0009b9,0x0009ba,
0x0009bb,0x0009bc,0x0009bd,0x0009be,0x0009bf,0x0009c0,0x0009c1,0x0009c2,0x0009c3,0x0009c4,
0x0009c5,0x0009c6,0x0009c7,0x0009c8,0x0009c9,0x0009ca,0x0009cb,0x0009cc,0x0009cd,0x0009ce,
0x0009cf,0x0009d0,0x0009d1,0x0009d2,0x0009d3,0x0009d4,0x0009d5,0x0009d6,0x0009d7,0x0009d8,
0x0009d9,0x0009da,0x0009db,0x0009dc,0x0009dd,0x0009de,0x0009df,0x0009e0,0x0009e1,0x0009e2,
0x0009e3,0x0009e4,0x0009e5,0x0009e6,0x0009e7,0x0009e8,0x0009e9,0x0009ea,0x0009eb,0x0009ec,
0x0009ed,0x0009ee,0x0009ef,0x0009f0,0x0009f1,0x0009f2,0x0009f3,0x0009f4,0x0009f5,0x0009f6,
0x0009f7,0x0009f8,0x0009f9,0x0009fa,0x0009fb,0x0009fc,0x0009fd,0x0009fe,0x0009ff,0x000a00,
0x000a01,0x000a02,0x000a03,0x000a04,0x000a05,0x000a06,0x000a07,0x000a08,0x000a09,0x000a0a,
0x000a0b,0x000a0c,0x000a0d,0x000a0e,0x000a0f,0x000a10,0x000a11,0x000a12,0x000a13,0x000a14,
0x000a15,0x000a16,0x000a17,0x000a18,0x000a19,0x000a1a,0x000a1b,0x000a1c,0x000a1d,0x000a1e,
0x000a1f,0x000a20,0x000a21,0x000a22,0x000a23,0x000a24,0x000a25,0x000a26,0x000a27,0x000a28,
0x000a29,0x000a2a,0x000a2b,0x000a2c,0x000a2d,0x000a2e,0x000a2f,0x000a30,0x000a31,0x000a32,
0x000a33,0x000a34,0x000a35,0x000a36,0x000a37,0x000a38,0x000a39,0x000a3a,0x000a3b,0x000a3c,
0x000a3d,0x000a3e,0x000a3f,0x000a40,0x000a41,0x000a42,0x000a43,0x000a44,0x000a45,0x000a46,
0x000a47,0x000a48,0x000a49,0x000a4a,0x000a4b,0x000a4c,0x000a4d,0x000a4e,0x000a4f,0x000a50,
0x000a51,0x000a52,0x000a53,0x000a54,0x000a55,0x000a56,0x000a57,0x000a58,0x000a59,0x000a5a,
0x000a5b,0x000a5c,0x000a5d,0x000a5e,0x000a5f,0x000a60,0x000a61,0x000a62,0x000a63,0x000a64,
0x000a65,0x000a66,0x000a67,0x000a68,0x000a69,0x000a6a,0x000a6b,0x000a6c,0x000a6d,0x000a6e,
0x000a6f,0x000a70,0x000a71,0x000a72,0x000a73,0x000a74,0x000a75,0x000a76,0x000a77,0x000a78,
0x000a79,0x000a7a,0x000a7b,0x000a7c,0x000a7d,0x000a7e,0x000a7f,0x000a80,0x000a81,0x000a82,
0x000a83,0x000a84,0x000a85,0x000a86,0x000a87,0x000a88,0x000a89,0x000a8a,0x000a8b,0x000a8c,
0x000a8d,0x000a8e,0x000a8f,0x000a90,0x000a91,0x000a92,0x000a93,0x000a94,0x000a95,0x000a96,
0x000a97,0x000a98,0x000a99,0x000a9a,0x000a9b,0x000a9c,0x000a9d,0x000a9e,0x000a9f,0x000aa0,
0x000aa1,0x000aa2,0x000aa3,0x000aa4,0x000aa5,0x000aa6,0x000aa7,0x000aa8,0x000aa9,0x000aaa,
0x000aab,0x000aac,0x000aad,0x000aae,0x000aaf,0x000ab0,0x000ab conludes at 0x000fff
