0x0123,0xffab,0x0456,0x0789,0x0abc,0x0def,0x1123,0x1456,0x1789,0x1abc,
0x1def,0x2123,0x2456,0x2789,0x2abc,0x2def,0x3123,0x3456,0x3789,0x3abc,
0x3def,0x4123,0x4456,0x4789,0x4abc,0x4def,0x5123,0x5456,0x5789,0x5abc,
0x5def,0x6123,0x6456,0x6789,0x6abc,0x6def,0x7123,0x7456,0x7789,0x7abc,
0x7def,0x8123,0x8456,0x8789,0x8abc,0x8def,0x9123,0x9456,0x9789,0x9abc,
0x9def,0xa123,0xa456,0xa789,0xaabc,0xadef,0xb123,0xb456,0xb789,0xbabc,
0xbdef,0xc123,0xc456,0xc789
